는데	0
<unk>	0
▁나	1
▁있	2
▁아	3
▁가	4
▁하	5
▁사	6
▁이	7
에서	8
▁내	9
▁먹	10
▁너	11
▁다	12
▁것	13
▁너무	14
▁같	15
▁오	16
▁어	17
▁좋	18
▁많	19
▁해	20
어요	21
▁안	22
▁우	23
▁때	24
▁자	25
▁시	26
▁고	27
▁집	28
▁요	29
▁우리	30
▁지	31
▁한	32
▁그	33
▁키	34
어서	35
▁같아	36
으로	37
▁건	38
▁생	39
▁기	40
▁보	41
▁일	42
▁수	43
▁정	44
해서	45
▁요즘	46
니다	47
▁결	48
▁없	49
친구	50
▁타	51
▁오늘	52
▁싶	53
▁내가	54
▁많이	55
▁잘	56
▁좋아	57
다고	58
▁않	59
▁사람	60
▁강	61
들이	62
▁부	63
▁건강	64
▁할	65
▁거	66
▁키우	67
▁친구	68
▁대	69
아지	70
▁전	71
▁동	72
▁비	73
▁결혼	74
하는	75
▁버	76
▁걸	77
▁강아지	78
▁엄	79
▁받	80
▁마	81
▁주	82
▁모	83
▁들	84
하고	85
▁맛	86
▁만	87
▁더	88
▁제	89
▁중	90
라고	91
▁있어	92
▁못	93
이야	94
습니다	95
했어	96
려고	97
했는데	98
▁버스	99
▁회	100
양이	101
▁여	102
▁바	103
▁저	104
▁직	105
▁난	106
▁취	107
▁고양이	108
▁게	109
었어	110
▁운	111
▁알	112
▁집에	113
었는데	114
▁이번	115
▁조	116
아서	117
▁타고	118
▁생각	119
▁정말	120
니까	121
▁미	122
▁회사	123
하게	124
▁맛있	125
▁엄마	126
에는	127
▁무	128
▁반	129
리를	130
▁날	131
▁차	132
▁도	133
▁있는	134
▁소	135
▁나는	136
▁배	137
▁매	138
음식	139
▁새	140
▁되	141
▁결혼식	142
보다	143
▁인	144
겠어	145
▁말	146
▁하는데	147
▁계	148
▁예	149
▁불	150
▁입	151
▁병	152
면서	153
을까	154
▁상	155
▁들어	156
▁음식	157
다가	158
▁공	159
▁갔	160
▁신	161
▁먹고	162
더라	163
▁장	164
▁최	165
▁어제	166
▁아빠	167
문에	168
▁집에서	169
▁구	170
▁이제	171
▁남	172
▁출	173
▁싶어	174
▁스	175
▁직장	176
▁살	177
까지	178
▁올	179
▁힘	180
▁때문에	181
▁먹어	182
▁간	183
▁재	184
기가	185
▁치	186
▁돼	187
▁지하	188
▁줄	189
▁병원	190
▁하는	191
▁시작	192
▁우리집	193
▁지하철	194
▁친구가	195
▁세	196
▁드	197
부터	198
았어	199
▁모르	200
기를	201
▁노	202
▁위	203
▁진	204
으면	205
았는데	206
▁식	207
▁연	208
▁엄마가	209
지만	210
▁당	211
▁물	212
왔어	213
▁이번에	214
▁영	215
▁밥	216
리가	217
져서	218
▁달	219
▁있어서	220
▁해서	221
셔서	222
▁아침	223
▁택	224
교통	225
▁시간	226
▁편	227
더니	228
▁갈	229
▁있는데	230
▁새로	231
▁준	232
▁피	233
려서	234
▁나이	235
▁비행	236
와서	237
은데	238
레스	239
▁지금	240
들은	241
▁넣	242
▁힘들	243
▁운전	244
▁좋은	245
▁작	246
에게	247
님이	248
▁하나	249
▁뭐	250
이라	251
▁운동	252
▁유	253
▁아직	254
▁발	255
▁택시	256
▁없어	257
▁얼	258
다는	259
▁실	260
▁온	261
▁토	262
▁적	263
▁학	264
▁김	265
▁따	266
보고	267
했어요	268
▁돌	269
▁몸	270
이를	271
▁만들	272
▁매일	273
▁감	274
▁눈	275
▁맞	276
▁쓰	277
머니	278
▁화	279
▁준비	280
▁취업	281
▁면	282
하지	283
▁약	284
▁조금	285
▁사람들이	286
▁계속	287
▁추	288
▁자꾸	289
렸어	290
▁엄청	291
▁옷	292
▁과	293
▁번	294
마다	295
▁관	296
▁햄	297
▁강아지가	298
▁사람이	299
▁걱	300
▁귀	301
▁걱정	302
▁먹는	303
▁장례	304
동물	305
▁반려	306
▁있을까	307
▁열	308
▁가서	309
▁했는데	310
▁선	311
▁같이	312
▁잠	313
▁반려동물	314
▁심	315
▁두	316
▁항	317
워서	318
▁갑	319
▁방	320
▁파	321
▁손	322
스터	323
스러	324
▁해야	325
▁나도	326
▁날씨	327
▁데	328
▁서	329
▁키우고	330
▁키우는	331
▁있습니다	332
▁업	333
해야	334
▁스트	335
▁성	336
▁국	337
▁늦	338
렇게	339
▁얼마	340
▁의	341
▁아내	342
▁아무	343
▁언	344
셨어	345
▁혼	346
▁취미	347
▁1	348
▁처	349
▁내일	350
▁자주	351
적으로	352
전거	353
▁가장	354
▁자전거	355
▁분	356
▁초	357
▁기차	358
▁장례식	359
었어요	360
▁아빠가	361
▁문	362
지고	363
▁원	364
▁스트레스	365
▁길	366
▁찾	367
▁다니	368
▁먹으	369
▁코	370
▁퇴	371
▁오늘은	372
▁외	373
▁탈	374
기로	375
▁금	376
▁양	377
▁출근	378
▁햄스터	379
▁모르겠어	380
▁챙	381
▁놀	382
▁합	383
▁다른	384
▁일이	385
들을	386
하면	387
▁그런	388
봤는데	389
▁없어서	390
▁애	391
▁업무	392
▁싫	393
인데	394
▁그냥	395
▁먹을	396
▁느	397
▁왜	398
▁다음	399
▁마음	400
▁일을	401
는지	402
▁회사에서	403
떻게	404
▁처음	405
▁한번	406
▁항상	407
▁어떻게	408
▁있어요	409
▁별	410
검진	411
이나	412
▁동물	413
자친구	414
졌어	415
▁교통	416
▁않아	417
▁지난	418
▁시켜	419
▁점	420
▁저녁	421
▁찍	422
쇼핑	423
▁혼자	424
▁병원에	425
▁앞	426
자기	427
▁갑자기	428
▁속	429
▁가는	430
▁가족	431
▁최근	432
▁청	433
라서	434
한테	435
▁거야	436
▁많아	437
▁좀	438
이랑	439
▁밥을	440
▁빨	441
▁산	442
사가	443
▁환	444
▁김치	445
▁많은	446
▁나이가	447
▁꼭	448
리는	449
▁세계	450
라면	451
지는	452
▁평	453
▁후	454
대로	455
보드	456
▁때는	457
▁같아요	458
▁돌아	459
▁동생	460
▁2	461
▁하고	462
▁학교	463
▁개	464
리고	465
어나	466
▁날씨가	467
▁강아지를	468
▁3	469
▁아침에	470
▁건강검진	471
▁어떤	472
▁전에	473
▁짜	474
킥보드	475
▁아내가	476
▁막	477
에도	478
▁또	479
▁봐	480
해요	481
▁다행	482
▁별로	483
▁쇼핑	484
더라고	485
▁끝	486
▁왔	487
로나	488
▁했어	489
▁코로나	490
▁떨	491
▁저는	492
▁적이	493
▁다녀	494
▁곳	495
▁같은	496
▁받아	497
▁할머니	498
▁친	499
▁미국	500
▁됐	501
▁기분	502
▁결혼식에	503
▁종	504
▁필	505
▁제일	506
하는데	507
나라	508
네요	509
사를	510
▁알아	511
▁맛있어	512
▁비행기	513
▁참	514
▁했	515
▁왔어	516
▁머	517
▁큰	518
스러워	519
▁우리나라	520
▁몇	521
▁익	522
어버	523
▁작년	524
▁같아서	525
▁고양이가	526
▁돈	527
▁어디	528
▁백	529
렸을	530
심히	531
▁않고	532
▁버스를	533
▁생각보다	534
▁고민	535
▁그래	536
▁문제	537
▁탔	538
료를	539
▁다시	540
▁데려	541
▁이렇게	542
▁벌	543
▁카	544
▁것도	545
▁결과	546
▁라면	547
▁퇴근	548
▁어렸을	549
▁목	550
▁떨어	551
▁아니	552
▁차를	553
자고	554
▁따라	555
▁몸이	556
▁사고	557
▁열심히	558
▁죽	559
▁가야	560
▁산책	561
▁아이	562
▁토끼	563
▁건강이	564
▁함	565
크림	566
▁만나	567
▁먹었어	568
▁경	569
식을	570
지를	571
하기	572
▁챙겨	573
▁화가	574
던데	575
시간	576
▁남편	577
▁사용	578
▁싫어	579
▁최근에	580
▁났	581
▁나오	582
이라고	583
입니다	584
▁샀	585
▁어려	586
셨어요	587
▁킥보드	588
▁힘들어	589
▁근	590
▁삼	591
었던	592
▁고양이는	593
▁받았는데	594
▁넘	595
밖에	596
▁좋아해서	597
▁프	598
이에	599
하러	600
▁진짜	601
▁청소	602
▁최고	603
▁괜	604
▁늘	605
스를	606
들이랑	607
▁갔는데	608
▁몰	609
▁확	610
디어	611
▁보고	612
▁키울	613
▁함께	614
▁새로운	615
▁냉	616
장에	617
▁나서	618
▁나왔	619
▁보니	620
▁옷을	621
▁직원	622
▁좋아하는	623
▁잃	624
▁대중	625
▁여러	626
▁예매	627
▁입양	628
▁싶은데	629
▁떡	630
▁쉬	631
▁불편	632
▁필요	633
합니다	634
▁볶	635
▁대한	636
▁면접	637
▁오래	638
▁때마다	639
▁뒤	640
지가	641
▁바로	642
▁정도	643
▁고양이를	644
▁체	645
▁불안	646
▁언니	647
▁이용	648
겠어요	649
▁드디어	650
▁대중교통	651
▁지하철을	652
▁승	653
▁커	654
동안	655
밥을	656
▁생겼	657
▁아파	658
▁와서	659
▁키웠	660
셨는데	661
▁않아서	662
▁자전거를	663
▁누	664
▁옆	665
료가	666
▁주변	667
▁얼마나	668
▁키우는데	669
▁슬	670
감이	671
▁조심	672
▁결과가	673
▁나와서	674
▁운동을	675
▁야	676
▁완	677
▁팀	678
도치	679
장을	680
▁괜찮	681
▁동안	682
▁주말	683
▁결혼식을	684
▁젊	685
▁핸	686
금을	687
밥이	688
▁기니	689
▁비가	690
▁사회	691
▁키워	692
▁해요	693
▁시간이	694
▁택시를	695
▁급	696
▁뭐가	697
▁임	698
라인	699
이크	700
▁당황	701
▁제가	702
▁받았어	703
▁며	704
▁복	705
신이	706
웨딩	707
전에	708
▁거북	709
▁며칠	710
▁벌써	711
▁음식이	712
▁좋아서	713
▁될	714
상이	715
▁걸려서	716
▁돌아가	717
▁닭	718
▁나가	719
▁나를	720
▁보면	721
▁요리	722
▁피부	723
▁핸드	724
경을	725
술을	726
▁10	727
하다가	728
▁명	729
▁빠	730
▁행	731
세요	732
스타	733
▁빨리	734
▁아프	735
▁웨딩	736
하다고	737
▁만들어	738
▁직장에서	739
▁깨	740
▁설	741
▁팔	742
▁감사	743
▁노력	744
▁하루	745
▁온라인	746
▁반려동물을	747
인이	748
▁기다	749
▁여름	750
▁있을	751
▁그래서	752
▁사람을	753
▁일어나	754
▁중이야	755
▁포	756
다니	757
▁것이	758
▁점심	759
▁추천	760
▁많아서	761
▁앵	762
▁현	763
▁금방	764
▁떡볶	765
▁꾸	766
▁딸	767
▁본	768
상을	769
요일	770
표를	771
할까	772
▁가고	773
▁것을	774
▁찍어	775
▁해주	776
▁여자친구	777
▁교	778
▁향	779
력이	780
▁보내	781
▁아주	782
슴도치	783
시는데	784
▁싶어요	785
도를	786
수를	787
줘야	788
▁무서	789
▁앵무	790
▁여행	791
▁음식을	792
▁등	793
시는	794
피그	795
해주	796
▁고속	797
▁말을	798
▁모든	799
▁아픈	800
▁오랜	801
▁들어가	802
▁음식은	803
▁잃어버	804
▁좋아해	805
▁했어요	806
▁고슴도치	807
▁남자친구	808
▁끓	809
▁멀	810
길래	811
일을	812
▁대해	813
▁방법	814
▁잘못	815
▁이제는	816
▁밤	817
▁케	818
나게	819
아버	820
주에	821
▁상사가	822
▁아직도	823
▁키우기	824
▁먹으려고	825
▁냄	826
▁통	827
▁부모	828
▁시키	829
▁올해	830
이에요	831
▁가지고	832
▁동생이	833
▁있었는데	834
▁단	835
▁잡	836
▁태	837
고기	838
들도	839
▁무슨	840
▁보여	841
▁살이	842
▁연락	843
▁할지	844
으니까	845
▁강아지는	846
▁겨	847
▁뭘	848
▁순	849
▁허	850
들의	851
찌개	852
했던	853
▁구매	854
▁도착	855
▁서울	856
▁시각	857
▁아닌	858
▁중국	859
보려고	860
야겠어	861
하면서	862
▁비행기를	863
▁밀	864
▁습	865
거든	866
수가	867
적인	868
▁갔어	869
▁구워	870
▁귀찮	871
▁맛이	872
▁바빠	873
▁알고	874
▁옷이	875
▁중에	876
▁프로	877
았어요	878
▁기차를	879
▁떠	880
어야	881
▁간단	882
▁공부	883
▁생일	884
▁결혼을	885
▁요즘에	886
▁먹었는데	887
▁할머니가	888
▁호	889
겠지	890
웠어	891
정이	892
▁의사	893
▁건강에	894
▁엄청나게	895
▁건강검진을	896
▁독	897
▁메	898
▁앉	899
▁역	900
동차	901
물을	902
정을	903
▁걸어	904
▁길에	905
▁나라	906
▁동네	907
▁식당	908
▁일찍	909
▁차가	910
▁타는	911
이크를	912
▁기분이	913
▁사고가	914
▁파스타	915
였습니다	916
▁충	917
라는	918
만에	919
스럽	920
이지	921
▁기억	922
▁느껴	923
▁도로	924
▁배달	925
▁없는	926
달라고	927
▁4	928
▁삶	929
느라	930
단을	931
스크	932
트를	933
▁가끔	934
▁나랑	935
▁부족	936
▁습관	937
▁싶은	938
하려고	939
▁그런지	940
▁버스가	941
▁있다고	942
▁회사에	943
▁낳	944
▁놓	945
가를	946
▁부장	947
▁자기	948
에서는	949
하니까	950
한다고	951
▁받아서	952
▁시작했는데	953
▁5	954
▁까	955
▁먼	956
먹고	957
하네	958
▁계란	959
▁영상	960
▁재밌	961
▁건강한	962
▁예전에	963
▁할아버	964
▁핸드폰	965
▁기니피그	966
▁빼	967
스가	968
▁고생	969
▁쓰고	970
▁오는	971
▁익숙	972
▁화장	973
▁싶어서	974
▁자동차	975
▁사람들은	976
▁세계였습니다	977
▁광	978
제를	979
집에	980
▁가면	981
▁났어	982
▁나한테	983
▁합니다	984
▁알았는데	985
리에	986
새가	987
▁상사	988
▁새끼	989
▁승진	990
▁오랜만에	991
시고	992
임을	993
쳐서	994
터넷	995
▁재미	996
▁지나	997
▁찾아	998
▁환경	999
이라는	1000
▁엄마는	1001
▁요리를	1002
▁인터넷	1003
▁프로젝	1004
▁간단하게	1005
▁및	1006
▁얘	1007
▁크	1008
봐야	1009
원에	1010
적이	1011
▁나만	1012
▁늦게	1013
▁만드	1014
▁사진	1015
▁안좋	1016
▁없이	1017
▁마음에	1018
▁제대로	1019
했습니다	1020
▁쌀	1021
고를	1022
부분	1023
예요	1024
주는	1025
지도	1026
처럼	1027
▁귀여	1028
▁넘어	1029
▁생긴	1030
▁영양	1031
▁입원	1032
다는데	1033
들에게	1034
▁같은데	1035
▁건강을	1036
▁넣어서	1037
▁시간을	1038
▁위해서	1039
▁작년에	1040
▁치료를	1041
▁친구들이랑	1042
▁꼬	1043
▁맡	1044
▁숨	1045
기에	1046
봤어	1047
토바	1048
혈압	1049
▁공유	1050
▁사실	1051
▁손을	1052
▁전동	1053
으려고	1054
▁나왔어	1055
▁남편이	1056
▁다행히	1057
▁오토바	1058
▁검	1059
▁변	1060
▁붙	1061
▁축	1062
드를	1063
유가	1064
▁놀랐	1065
▁반찬	1066
▁빠르	1067
▁선물	1068
▁아버	1069
▁좋지	1070
▁하면	1071
▁있었어	1072
▁탔는데	1073
▁질	1074
▁훨	1075
비가	1076
사고	1077
어를	1078
▁걸까	1079
▁미리	1080
▁비싸	1081
▁정부	1082
▁해도	1083
▁훨씬	1084
▁생각이	1085
▁병원에서	1086
▁스트레스를	1087
▁장례식장에	1088
▁담	1089
▁믿	1090
▁잊	1091
▁찜	1092
▁활	1093
▁나와	1094
▁신입	1095
▁어느	1096
▁어릴	1097
▁위해	1098
▁인해	1099
▁하러	1100
▁한국	1101
▁할까	1102
▁대부분	1103
▁샀는데	1104
▁않을까	1105
▁요즘은	1106
▁뻔	1107
▁싸	1108
▁씻	1109
▁잔	1110
대요	1111
도로	1112
자를	1113
▁나온	1114
▁눈이	1115
▁됐어	1116
▁먹기	1117
▁모두	1118
▁생겨	1119
▁젊은	1120
▁친한	1121
▁타면	1122
▁마스크	1123
▁연락이	1124
▁저녁에	1125
▁시작했어	1126
▁뉴	1127
▁된	1128
▁밖	1129
▁창	1130
나서	1131
소에	1132
퇴근	1133
▁그러	1134
▁꾸준	1135
▁밖에	1136
▁안에	1137
▁제공	1138
▁치킨	1139
관리를	1140
버렸어	1141
▁교통카	1142
▁마음이	1143
▁직장에	1144
▁출퇴근	1145
▁다행이야	1146
▁맛있더라	1147
▁답	1148
▁쓸	1149
▁용	1150
들과	1151
줬어	1152
▁동료	1153
▁때가	1154
▁사는	1155
▁점점	1156
생님이	1157
▁들어서	1158
▁떡볶이	1159
▁맛있는	1160
▁취미가	1161
▁취미로	1162
▁취업이	1163
▁혼자서	1164
더라고요	1165
▁곧	1166
▁뱀	1167
▁쉽	1168
▁와	1169
▁풀	1170
님께	1171
수록	1172
의점	1173
이가	1174
자가	1175
▁기업	1176
▁중요	1177
▁짜증	1178
▁하객	1179
▁하지	1180
실에서	1181
▁그렇게	1182
▁먹는데	1183
▁먹으러	1184
▁원하는	1185
▁편의점	1186
까봐	1187
물이	1188
장이	1189
품을	1190
하다	1191
▁가능	1192
▁다양	1193
▁마트	1194
▁먼저	1195
▁미안	1196
▁수가	1197
▁슬퍼	1198
▁약을	1199
▁위험	1200
▁임신	1201
▁전기	1202
▁다니고	1203
▁문제가	1204
▁하셔서	1205
▁낮	1206
▁딱	1207
기는	1208
장면	1209
훈련	1210
▁갔을	1211
▁곳이	1212
▁기뻐	1213
▁드는	1214
▁바꿔	1215
▁언제	1216
▁이후	1217
▁해먹	1218
▁가려고	1219
▁거예요	1220
▁준비를	1221
▁짜장면	1222
▁퇴근하고	1223
..	1224
▁레	1225
▁절	1226
▁터	1227
산을	1228
상해	1229
약자	1230
움직	1231
일에	1232
즈를	1233
▁노래	1234
▁다들	1235
▁마리	1236
▁말고	1237
▁쉬운	1238
▁약속	1239
▁합격	1240
약자석	1241
▁가는데	1242
▁그리고	1243
▁꾸준히	1244
▁식당에	1245
▁자신이	1246
▁주말에	1247
▁진단을	1248
▁하려고	1249
▁한다고	1250
▁버스에서	1251
▁코로나로	1252
▁대중교통을	1253
▁채	1254
▁책	1255
▁투	1256
라도	1257
식이	1258
아야	1259
치고	1260
▁겨울	1261
▁결국	1262
▁관련	1263
▁부서	1264
▁부탁	1265
▁시켰	1266
▁않을	1267
▁알려	1268
▁예약	1269
▁움직	1270
▁저번	1271
▁하기	1272
▁해결	1273
식으로	1274
주셨어	1275
했다고	1276
▁가자고	1277
▁봤는데	1278
▁김치찌개	1279
▁요즘에는	1280
▁뿌	1281
▁써	1282
▁악	1283
▁즐	1284
나고	1285
수육	1286
하던	1287
▁가요	1288
▁넣어	1289
▁되는	1290
▁배우	1291
▁입어	1292
▁피곤	1293
▁하네	1294
장에서	1295
▁먹어야	1296
▁먹으면	1297
▁바빠서	1298
▁프로젝트	1299
▁갖	1300
▁끊	1301
▁판	1302
▁혹	1303
▁휴	1304
도가	1305
마자	1306
생활	1307
수로	1308
▁너는	1309
▁뉴스	1310
▁달걀	1311
▁되어	1312
▁모습	1313
▁신기	1314
▁좋을	1315
▁주문	1316
▁혹시	1317
▁훈련	1318
자마자	1319
▁못했어	1320
▁소리가	1321
▁이후로	1322
▁중에서	1323
▁걱정이야	1324
▁먹어봤는데	1325
▁생각했는데	1326
▁꺼	1327
▁탕	1328
같이	1329
도록	1330
되는	1331
려면	1332
만원	1333
인지	1334
일이	1335
전히	1336
증이	1337
▁그만	1338
▁노인	1339
▁상처	1340
▁않은	1341
▁요새	1342
▁이야	1343
▁좋고	1344
▁취소	1345
▁타야	1346
들어서	1347
▁거라고	1348
▁받아야	1349
▁언니가	1350
▁의사선	1351
▁탕수육	1352
▁하면서	1353
▁감사합니다	1354
▁의사선생님이	1355
▁긴	1356
▁뛰	1357
▁뜨	1358
▁월	1359
으니	1360
해진	1361
▁가게	1362
▁내려	1363
▁느끼	1364
▁매운	1365
▁받은	1366
▁부러	1367
▁사러	1368
▁심해	1369
▁쓰레	1370
▁작은	1371
▁탈출	1372
스럽게	1373
스크림	1374
하더라	1375
▁나에게	1376
▁다니는	1377
▁싶었던	1378
▁아파서	1379
▁어머니	1380
▁재미있	1381
▁노약자석	1382
▁운전하는	1383
▁아이스크림	1384
감을	1385
두고	1386
이래	1387
▁30	1388
▁가격	1389
▁구경	1390
▁다이	1391
▁미용	1392
▁바람	1393
▁상황	1394
▁예정	1395
▁잠깐	1396
▁직접	1397
▁집을	1398
기에는	1399
▁속상해	1400
▁않았어	1401
▁거북이를	1402
▁건강하게	1403
▁고민이야	1404
▁부모님이	1405
▁어제부터	1406
▁당황스러워	1407
▁높	1408
▁쪄	1409
기업	1410
동을	1411
르고	1412
시지	1413
심이	1414
피를	1415
▁근처	1416
▁되고	1417
▁두고	1418
▁먹었	1419
▁배를	1420
▁성공	1421
▁신경	1422
▁이름	1423
▁자막	1424
▁잠이	1425
주부터	1426
▁다이어	1427
▁사려고	1428
▁생겨서	1429
▁생겼어	1430
▁어디서	1431
▁없을까	1432
▁있으면	1433
▁싶었는데	1434
▁지난주에	1435
▁킥보드를	1436
▁낙	1437
▁네	1438
끄러	1439
동이	1440
라이	1441
산에	1442
▁거래	1443
▁공간	1444
▁나중	1445
▁대학	1446
▁번도	1447
▁보냈	1448
▁생기	1449
▁생활	1450
▁쓰는	1451
▁애매	1452
▁집안	1453
▁참석	1454
▁편해	1455
보다는	1456
▁가족이	1457
▁생각해	1458
▁수술을	1459
▁사람들도	1460
▁좋아하는데	1461
▁골	1462
겠네	1463
달에	1464
됐어	1465
류를	1466
마뱀	1467
밥은	1468
법이	1469
주면	1470
해줘	1471
▁20	1472
▁걸려	1473
▁분위	1474
▁소문	1475
▁이런	1476
▁입사	1477
렸어요	1478
이라도	1479
▁기억이	1480
▁나보고	1481
▁만드는	1482
▁먹어서	1483
▁무서워	1484
▁산책을	1485
▁아무리	1486
▁토요일	1487
▁귀찮아서	1488
▁걷	1489
▁접	1490
▁증	1491
▁튀	1492
놓고	1493
모가	1494
시를	1495
실에	1496
실히	1497
였어	1498
일까	1499
제가	1500
화를	1501
▁맛집	1502
▁매주	1503
▁면허	1504
▁번씩	1505
▁볶아	1506
▁없네	1507
▁올리	1508
▁유명	1509
▁인사	1510
▁카페	1511
▁할인	1512
▁고기를	1513
▁머리를	1514
▁앞으로	1515
▁운전을	1516
▁점심은	1517
▁고속도로	1518
▁교통사고	1519
▁비행기가	1520
▁키웠는데	1521
▁학교까지	1522
▁6	1523
▁뒷	1524
▁억	1525
▁울	1526
▁탄	1527
▁헬	1528
치를	1529
태가	1530
▁끓여	1531
▁놀러	1532
▁메뉴	1533
▁삼촌	1534
▁일주	1535
▁중식	1536
▁행복	1537
겠다고	1538
▁걸렸어	1539
▁괜찮은	1540
▁라면을	1541
▁불안해	1542
▁지금은	1543
▁청소를	1544
▁택시가	1545
▁하니까	1546
▁좋아져서	1547
▁끌	1548
▁특	1549
겠다	1550
기만	1551
▁갑작	1552
▁돈을	1553
▁돼서	1554
▁되면	1555
▁못한	1556
▁아는	1557
▁야근	1558
▁어렵	1559
▁옆집	1560
▁이상	1561
▁제품	1562
▁지내	1563
▁팀장	1564
왔는데	1565
▁걱정이	1566
▁과일을	1567
▁그동안	1568
▁끝나고	1569
▁됐어요	1570
▁때부터	1571
▁싶다고	1572
▁아이를	1573
▁자리가	1574
▁전기차	1575
▁하다가	1576
▁했더니	1577
▁대부분의	1578
▁산책하러	1579
▁끼	1580
▁뽑	1581
▁암	1582
▁천	1583
▁클	1584
면을	1585
선이	1586
▁맞아	1587
▁뭐야	1588
▁사업	1589
▁실망	1590
▁여가	1591
▁이동	1592
▁있네	1593
▁자격	1594
▁추워	1595
▁마리를	1596
▁만나서	1597
▁머리가	1598
▁우리가	1599
▁이상이	1600
▁좋겠어	1601
▁좋아지	1602
▁결혼식이	1603
▁내일부터	1604
▁맛있었어	1605
▁배달음식	1606
▁일어나는	1607
▁햄스터는	1608
▁뭔	1609
▁은	1610
▁퍼	1611
되고	1612
로워	1613
젯밤	1614
한데	1615
▁가방	1616
▁개인	1617
▁나갔	1618
▁내년	1619
▁답답	1620
▁백화	1621
▁보는	1622
▁서서	1623
▁선택	1624
▁양보	1625
▁오랫	1626
▁잠을	1627
▁추가	1628
▁치료	1629
▁한식	1630
▁게임을	1631
▁귀여워	1632
▁되었어	1633
▁아무도	1634
▁아빠는	1635
▁어젯밤	1636
▁좋을까	1637
▁확실히	1638
▁떨어져서	1639
▁알아보고	1640
▁오랫동안	1641
▁장례식이	1642
▁추천해줘	1643
▁하셨어요	1644
▁돌아가셔서	1645
▁땐	1646
▁졸	1647
▁털	1648
겹살	1649
마토	1650
방에	1651
슴살	1652
원을	1653
혀서	1654
히려	1655
▁꺼내	1656
▁당뇨	1657
▁대신	1658
▁들고	1659
▁딸이	1660
▁마셔	1661
▁만든	1662
▁말씀	1663
▁물을	1664
▁발표	1665
▁밤에	1666
▁설탕	1667
▁손톱	1668
▁시골	1669
▁역시	1670
▁열차	1671
▁인권	1672
▁일에	1673
▁줄어	1674
▁찜닭	1675
▁최대	1676
▁카레	1677
▁터키	1678
▁한심	1679
▁관리를	1680
▁놀랐어	1681
▁느껴져	1682
▁도마뱀	1683
▁백화점	1684
▁버스에	1685
▁삼겹살	1686
▁실수로	1687
▁아침을	1688
▁앵무새	1689
▁어려운	1690
▁오히려	1691
▁있을지	1692
▁재료가	1693
▁친구랑	1694
▁키우면	1695
▁토마토	1696
▁판정을	1697
▁나왔어요	1698
▁먹어보고	1699
▁햄스터를	1700
▁교통카드를	1701
▁여자친구가	1702
▁굽	1703
▁꽃	1704
▁논	1705
▁둘	1706
▁듣	1707
▁망	1708
▁옛	1709
나요	1710
명이	1711
비를	1712
아졌	1713
으러	1714
이고	1715
▁간편	1716
▁그게	1717
▁도움	1718
▁먹지	1719
▁물건	1720
▁받고	1721
▁아끼	1722
▁옛날	1723
▁우울	1724
▁이걸	1725
▁이것	1726
▁포함	1727
고기를	1728
▁가봐야	1729
▁건강해	1730
▁것보다	1731
▁그래도	1732
▁까먹고	1733
▁냄새가	1734
▁몰라서	1735
▁보니까	1736
▁소고기	1737
▁쇼핑몰	1738
▁아니라	1739
▁아들이	1740
▁않으면	1741
▁업무가	1742
▁오늘도	1743
▁자격증	1744
▁좋았어	1745
▁주변에서	1746
▁지하철은	1747
▁갑작스럽게	1748
▁시작했어요	1749
▁7	1750
▁똑	1751
▁품	1752
가고	1753
거를	1754
닐까	1755
리도	1756
염병	1757
육이	1758
한지	1759
▁냉장	1760
▁발견	1761
▁뱀을	1762
▁부딪	1763
▁분명	1764
▁사장	1765
▁손이	1766
▁연애	1767
▁원래	1768
▁위한	1769
▁자취	1770
▁퇴사	1771
▁파충	1772
더라구	1773
받았어	1774
▁고혈압	1775
▁광고를	1776
▁그대로	1777
▁급하게	1778
▁나중에	1779
▁다양한	1780
▁동물병	1781
▁드레스	1782
▁신입사	1783
▁아닐까	1784
▁아이가	1785
▁왔어요	1786
▁저번에	1787
▁전부터	1788
▁체력이	1789
▁토끼를	1790
▁타봤는데	1791
▁모르겠어요	1792
▁군	1793
▁넌	1794
▁맨	1795
▁박	1796
▁베	1797
▁폭	1798
면허	1799
보는	1800
스트	1801
신을	1802
약을	1803
오는	1804
화가	1805
▁걸릴	1806
▁길을	1807
▁냉면	1808
▁다르	1809
▁닭가	1810
▁말이	1811
▁물어	1812
▁밀키	1813
▁보호	1814
▁볶음	1815
▁뿌듯	1816
▁사야	1817
▁신혼	1818
▁심심	1819
▁어린	1820
▁어머	1821
▁없고	1822
▁있고	1823
▁있지	1824
▁장난	1825
▁제사	1826
▁취직	1827
▁평소	1828
▁하늘	1829
▁한참	1830
▁확인	1831
님께서	1832
하셔서	1833
▁가다가	1834
▁거리를	1835
▁눈물이	1836
▁많은데	1837
▁버스랑	1838
▁쇼핑을	1839
▁시켜서	1840
▁아내와	1841
▁어려워	1842
▁전염병	1843
▁하셨어	1844
▁훈련을	1845
▁힘들고	1846
▁닭가슴살	1847
▁먹었어요	1848
▁미국에서	1849
▁어젯밤에	1850
▁운전면허	1851
▁잃어버린	1852
▁친구들이	1853
▁싱	1854
▁썼	1855
▁존	1856
▁짬	1857
▁플	1858
갔어	1859
개를	1860
먹는	1861
파를	1862
▁가기	1863
▁맞는	1864
▁배가	1865
▁어떡	1866
▁외국	1867
▁있대	1868
▁전체	1869
▁주에	1870
▁집중	1871
▁짬뽕	1872
▁쪄서	1873
▁창문	1874
▁충격	1875
▁치매	1876
▁택배	1877
어져서	1878
이라서	1879
하느라	1880
▁걱정돼	1881
▁걸어가	1882
▁때까지	1883
▁멀어서	1884
▁불편해	1885
▁어제는	1886
▁이유가	1887
▁좋다고	1888
▁짜증나	1889
▁하나도	1890
▁강아지랑	1891
▁기분이야	1892
▁나왔는데	1893
▁맛있어요	1894
▁지하철로	1895
▁지하철에	1896
▁덥	1897
▁응	1898
▁착	1899
▁트	1900
▁횡	1901
거야	1902
국이	1903
단보	1904
볼까	1905
부를	1906
센터	1907
옥수	1908
인가	1909
전을	1910
조해	1911
치가	1912
▁건가	1913
▁건너	1914
▁계획	1915
▁과연	1916
▁구독	1917
▁귀엽	1918
▁나면	1919
▁더욱	1920
▁돼요	1921
▁보이	1922
▁부담	1923
▁비싼	1924
▁살아	1925
▁술을	1926
▁스테	1927
▁앉아	1928
▁오른	1929
▁월급	1930
▁유럽	1931
▁이거	1932
▁제철	1933
▁종일	1934
▁큰일	1935
▁호텔	1936
▁회의	1937
사님이	1938
원에서	1939
▁고속버	1940
▁냉장고	1941
▁만들고	1942
▁비싸서	1943
▁사왔어	1944
▁세상을	1945
▁속도를	1946
▁신경을	1947
▁여행을	1948
▁이야기	1949
▁자리를	1950
▁조금씩	1951
▁중요한	1952
▁중인데	1953
▁초밥이	1954
▁친구의	1955
▁횡단보	1956
▁같습니다	1957
▁지난달에	1958
▁친구들과	1959
▁포함하고	1960
▁키웠었는데	1961
▁겸	1962
▁괴	1963
▁빈	1964
▁옮	1965
▁흔	1966
것도	1967
겼어	1968
만큼	1969
미가	1970
시면	1971
았네	1972
았던	1973
업을	1974
음을	1975
이트	1976
저것	1977
▁40	1978
▁갔다	1979
▁건지	1980
▁검사	1981
▁구운	1982
▁기름	1983
▁기회	1984
▁나갈	1985
▁나눠	1986
▁날짜	1987
▁내는	1988
▁냄비	1989
▁만큼	1990
▁미역	1991
▁바다	1992
▁받는	1993
▁상당	1994
▁올라	1995
▁일상	1996
▁주는	1997
▁차로	1998
▁찾지	1999
▁크림	2000
만으로	2001
왔어요	2002
하지만	2003
▁간식을	2004
▁결혼한	2005
▁관심이	2006
▁배우고	2007
▁애매한	2008
▁여러가	2009
▁좋아요	2010
▁취업을	2011
졌습니다	2012
▁부족해서	2013
▁여가시간	2014
▁정부에서	2015
▁파스타를	2016
▁기니피그를	2017
▁인터넷으로	2018
▁할아버지가	2019
▁M	2020
▁렌	2021
▁민	2022
▁욕	2023
▁핫	2024
▁흐	2025
드네	2026
리치	2027
시가	2028
어가	2029
었지	2030
용을	2031
쳤어	2032
치에	2033
프를	2034
▁고장	2035
▁나네	2036
▁난민	2037
▁남은	2038
▁누가	2039
▁늦잠	2040
▁더운	2041
▁동창	2042
▁버려	2043
▁보러	2044
▁분양	2045
▁비빔	2046
▁선생	2047
▁수도	2048
▁스파	2049
▁싶다	2050
▁여기	2051
▁일자	2052
▁입고	2053
▁저희	2054
▁전혀	2055
▁집이	2056
▁평균	2057
▁후회	2058
▁그런데	2059
▁나더라	2060
▁동네에	2061
▁동료가	2062
▁모르게	2063
▁병원을	2064
▁사줬어	2065
▁사진을	2066
▁새끼를	2067
▁수명이	2068
▁완전히	2069
▁의사가	2070
▁직장을	2071
▁청소가	2072
▁필요한	2073
▁떨어졌어	2074
▁만나기로	2075
▁많아져서	2076
▁신입사원	2077
▁이것저것	2078
▁반려동물로	2079
▁세계적으로	2080
▁깜	2081
▁낚	2082
▁든	2083
▁벗	2084
▁육	2085
▁잤	2086
▁짐	2087
▁철	2088
갑을	2089
나가	2090
르는	2091
선을	2092
있어	2093
조건	2094
주고	2095
편집	2096
하니	2097
해지	2098
효과	2099
▁거의	2100
▁거지	2101
▁고추	2102
▁그때	2103
▁나빠	2104
▁내서	2105
▁달려	2106
▁대형	2107
▁도룡	2108
▁되었	2109
▁만지	2110
▁배고	2111
▁쉽게	2112
▁시절	2113
▁시험	2114
▁없나	2115
▁우려	2116
▁은퇴	2117
▁이럴	2118
▁이사	2119
▁저출	2120
▁진로	2121
▁키운	2122
▁표를	2123
▁하니	2124
▁해외	2125
▁건강은	2126
▁못하고	2127
▁무조건	2128
▁밀키트	2129
▁방법이	2130
▁살아서	2131
▁소문이	2132
▁식감이	2133
▁아니야	2134
▁앞두고	2135
▁어느정	2136
▁업무를	2137
▁왔는데	2138
▁지갑을	2139
▁취미를	2140
▁취업에	2141
▁한다는	2142
▁회사가	2143
더라구요	2144
▁어머님이	2145
▁영상편집	2146
▁장례식에	2147
▁처음으로	2148
▁핸드폰을	2149
▁고슴도치는	2150
▁맥	2151
▁볼	2152
▁술	2153
▁캠	2154
▁컴	2155
▁흘	2156
가가	2157
류가	2158
받아	2159
없는	2160
잖아	2161
즐을	2162
질환	2163
치는	2164
퓨터	2165
할지	2166
▁갈아	2167
▁놀고	2168
▁도와	2169
▁동기	2170
▁따뜻	2171
▁맨날	2172
▁미래	2173
▁바지	2174
▁보통	2175
▁사오	2176
▁사준	2177
▁새를	2178
▁실제	2179
▁어울	2180
▁없을	2181
▁우산	2182
▁인생	2183
▁저도	2184
▁중고	2185
▁챙기	2186
▁청첩	2187
▁파는	2188
▁하시	2189
▁힘이	2190
걸이를	2191
겠는데	2192
리는데	2193
▁늘어나	2194
▁말라고	2195
▁미국이	2196
▁뻔했어	2197
▁소스를	2198
▁온다고	2199
▁요새는	2200
▁컴퓨터	2201
▁퍼즐을	2202
▁학원에	2203
▁앵무새가	2204
▁깎	2205
▁덜	2206
▁섞	2207
▁왠	2208
▁짧	2209
▁탑	2210
간에	2211
게티	2212
과에	2213
교를	2214
기한	2215
님은	2216
도그	2217
도는	2218
돼서	2219
레르	2220
림을	2221
발이	2222
사진	2223
시아	2224
여행	2225
위는	2226
추를	2227
하셔	2228
해도	2229
...	2230
▁가까	2231
▁가깝	2232
▁가을	2233
▁고기	2234
▁그리	2235
▁늦을	2236
▁되지	2237
▁만족	2238
▁명절	2239
▁물이	2240
▁받을	2241
▁발령	2242
▁사과	2243
▁속이	2244
▁약간	2245
▁양념	2246
▁어쩔	2247
▁억울	2248
▁영정	2249
▁예쁜	2250
▁왠지	2251
▁우유	2252
▁일반	2253
▁일본	2254
▁절대	2255
▁주고	2256
▁지각	2257
▁차별	2258
▁탑승	2259
가에서	2260
버려서	2261
역까지	2262
했더니	2263
▁공간이	2264
▁기다려	2265
▁김밥이	2266
▁김치가	2267
▁나보다	2268
▁내렸어	2269
▁도로가	2270
▁돼지고	2271
▁드니까	2272
▁들었어	2273
▁못해서	2274
▁반찬이	2275
▁받으면	2276
▁사람도	2277
▁삼촌이	2278
▁알레르	2279
▁없는데	2280
▁요리가	2281
▁요리해	2282
▁운전이	2283
▁익어서	2284
▁임신한	2285
▁정도로	2286
▁초밥을	2287
▁최고의	2288
▁최대한	2289
▁치킨을	2290
▁친구는	2291
▁키우던	2292
▁핫도그	2293
센터에서	2294
어버렸어	2295
주셨어요	2296
했었는데	2297
▁기사님이	2298
▁다이어트	2299
▁당황스러	2300
▁떡볶이를	2301
▁맛있어서	2302
▁먹으니까	2303
▁사용해서	2304
▁스파게티	2305
▁아무것도	2306
▁영양제를	2307
▁예정이야	2308
▁추가해서	2309
▁택시비가	2310
▁남자친구가	2311
▁노약자석에	2312
▁동물병원에	2313
▁오토바이를	2314
▁해주셨는데	2315
▁화장실에서	2316
▁횡단보도를	2317
▁8	2318
▁납	2319
▁년	2320
▁범	2321
▁젓	2322
▁홍	2323
그라	2324
까요	2325
다보	2326
더군	2327
두가	2328
락을	2329
만한	2330
에요	2331
이면	2332
▁걸린	2333
▁겨우	2334
▁국물	2335
▁국민	2336
▁난다	2337
▁내릴	2338
▁대표	2339
▁돈이	2340
▁만원	2341
▁먹게	2342
▁모임	2343
▁무거	2344
▁바닥	2345
▁반응	2346
▁버터	2347
▁본인	2348
▁비슷	2349
▁비용	2350
▁시스	2351
▁심각	2352
▁안나	2353
▁안전	2354
▁연봉	2355
▁연예	2356
▁오빠	2357
▁옥수	2358
▁유행	2359
▁인도	2360
▁일어	2361
▁입맛	2362
▁전철	2363
▁정거	2364
▁혈압	2365
보는데	2366
▁100	2367
▁갔어요	2368
▁거북이	2369
▁나라가	2370
▁나오는	2371
▁됐는데	2372
▁들어있	2373
▁매워서	2374
▁먹어도	2375
▁세계의	2376
▁소시지	2377
▁실제로	2378
▁웨딩홀	2379
▁잘하는	2380
▁주변에	2381
▁토끼가	2382
▁향수를	2383
▁환경을	2384
▁힘드네	2385
봤었는데	2386
▁떡볶이는	2387
▁많았는데	2388
▁않았는데	2389
▁주말마다	2390
▁중이에요	2391
▁친구들은	2392
▁햄스터가	2393
▁건강하다고	2394
▁전동킥보드	2395
▁토요일마다	2396
▁우리나라에서	2397
▁꿈	2398
▁덕	2399
▁맑	2400
▁묻	2401
▁표	2402
개질	2403
놨어	2404
다면	2405
대에	2406
되었	2407
락사	2408
리로	2409
리면	2410
위를	2411
음이	2412
줘서	2413
타민	2414
▁가려	2415
▁가르	2416
▁같네	2417
▁것은	2418
▁계약	2419
▁과일	2420
▁관리	2421
▁금붕	2422
▁날이	2423
▁달에	2424
▁도망	2425
▁뛰어	2426
▁못해	2427
▁받게	2428
▁배변	2429
▁사서	2430
▁사줬	2431
▁수술	2432
▁씻고	2433
▁영향	2434
▁유지	2435
▁이미	2436
▁일은	2437
▁집은	2438
▁태워	2439
▁한강	2440
▁해고	2441
고양이	2442
스에서	2443
하라고	2444
해지고	2445
▁가면서	2446
▁그런가	2447
▁나오지	2448
▁도룡룡	2449
▁들면서	2450
▁때에는	2451
▁뜨개질	2452
▁백신을	2453
▁보냈어	2454
▁시간에	2455
▁싫어요	2456
▁안락사	2457
▁이모가	2458
▁이용해	2459
▁일정이	2460
▁정부가	2461
▁좋아졌	2462
▁좋지만	2463
▁평소에	2464
▁피부에	2465
▁하던데	2466
▁회사는	2467
버렸어요	2468
▁넣었는데	2469
▁아버지가	2470
▁자격증을	2471
▁탕수육을	2472
▁피곤해서	2473
▁하더라고	2474
▁고슴도치를	2475
▁배달음식을	2476
▁좋아합니다	2477
▁편의점에서	2478
▁T	2479
▁겁	2480
▁글	2481
▁리	2482
▁썰	2483
▁왕	2484
▁헌	2485
났어	2486
등학	2487
러워	2488
성화	2489
여서	2490
저분	2491
히지	2492
▁가구	2493
▁갈비	2494
▁강요	2495
▁결정	2496
▁국내	2497
▁금지	2498
▁나름	2499
▁도전	2500
▁뒤로	2501
▁먹다	2502
▁목욕	2503
▁밖을	2504
▁방에	2505
▁병에	2506
▁보인	2507
▁복잡	2508
▁빼고	2509
▁상태	2510
▁세상	2511
▁소개	2512
▁알았	2513
▁완치	2514
▁위에	2515
▁유기	2516
▁조리	2517
▁즐겨	2518
▁현재	2519
▁효과	2520
거든요	2521
드레스	2522
등학교	2523
렸는데	2524
으라고	2525
하기로	2526
▁나가기	2527
▁도움이	2528
▁동물을	2529
▁들어간	2530
▁많아지	2531
▁붙어서	2532
▁뿌듯해	2533
▁사회적	2534
▁상황이	2535
▁알아보	2536
▁없었어	2537
▁왔으면	2538
▁있지만	2539
▁장례를	2540
▁저출산	2541
▁축가를	2542
▁하네요	2543
▁하지만	2544
▁한심해	2545
▁사용하는	2546
▁영정사진	2547
▁좋아해요	2548
▁킥보드가	2549
▁웨딩드레스	2550
▁잃어버려서	2551
▁굴	2552
▁넓	2553
▁녹	2554
▁뼈	2555
▁색	2556
▁폐	2557
▁형	2558
가는	2559
가서	2560
근무	2561
내고	2562
되어	2563
루가	2564
리기	2565
산부	2566
시켜	2567
시키	2568
아주	2569
었나	2570
주가	2571
주신	2572
주의	2573
품이	2574
해져	2575
했대	2576
▁가져	2577
▁간을	2578
▁나지	2579
▁눈앞	2580
▁눈치	2581
▁느낌	2582
▁달라	2583
▁동아	2584
▁많지	2585
▁먹은	2586
▁몰랐	2587
▁부분	2588
▁부하	2589
▁분리	2590
▁성적	2591
▁시킬	2592
▁식물	2593
▁신부	2594
▁쌀쌀	2595
▁양식	2596
▁연습	2597
▁예전	2598
▁용기	2599
▁이해	2600
▁자가	2601
▁자서	2602
▁재택	2603
▁정신	2604
▁정책	2605
▁제주	2606
▁좋게	2607
▁항암	2608
됐는데	2609
머니에	2610
성질환	2611
손으로	2612
으면서	2613
점에서	2614
하루가	2615
▁갔다가	2616
▁건조해	2617
▁국밥이	2618
▁날에는	2619
▁다녀야	2620
▁데이트	2621
▁모두가	2622
▁바꿔야	2623
▁반찬을	2624
▁시동이	2625
▁아닌데	2626
▁임산부	2627
▁입어보	2628
▁지저분	2629
▁집에만	2630
▁태어나	2631
▁피부가	2632
▁필요해	2633
▁하기로	2634
▁한동안	2635
▁해줘야	2636
해보려고	2637
▁가능할까	2638
▁결혼하고	2639
▁만들어서	2640
▁부장님이	2641
▁앵무새를	2642
▁어머니가	2643
▁이번에는	2644
▁재택근무	2645
▁주머니에	2646
▁짜장면이	2647
▁건강관리를	2648
▁김치찌개를	2649
▁스트레스가	2650
▁우리나라는	2651
▁조심스러워	2652
▁키우시는데	2653
▁하루하루가	2654
▁깊	2655
▁꽉	2656
▁뇌	2657
▁멕	2658
▁샐	2659
▁읽	2660
▁죄	2661
▁찬	2662
▁춘	2663
▁칼	2664
▁컵	2665
▁테	2666
▁희	2667
▁흰	2668
거래	2669
격이	2670
관이	2671
국수	2672
대가	2673
동은	2674
릿이	2675
말을	2676
매를	2677
먹어	2678
병에	2679
보호	2680
수단	2681
없이	2682
역버	2683
찜을	2684
통이	2685
히는	2686
▁TV	2687
▁가본	2688
▁간식	2689
▁경제	2690
▁고백	2691
▁국밥	2692
▁근무	2693
▁날아	2694
▁납작	2695
▁너희	2696
▁누워	2697
▁대구	2698
▁들었	2699
▁레시	2700
▁마련	2701
▁막내	2702
▁맛도	2703
▁맞추	2704
▁멕시	2705
▁면을	2706
▁몸을	2707
▁무섭	2708
▁무언	2709
▁미루	2710
▁밀떡	2711
▁반대	2712
▁받았	2713
▁밥은	2714
▁복숭	2715
▁부산	2716
▁빨래	2717
▁뼈가	2718
▁샐러	2719
▁생산	2720
▁선호	2721
▁소화	2722
▁숨어	2723
▁슬프	2724
▁승차	2725
▁식혜	2726
▁애완	2727
▁어묵	2728
▁예상	2729
▁예식	2730
▁이유	2731
▁잘해	2732
▁재활	2733
▁졸업	2734
▁좋다	2735
▁지원	2736
▁찜질	2737
▁챙길	2738
▁초대	2739
▁초콜	2740
▁케이	2741
▁케첩	2742
▁타코	2743
▁포장	2744
▁햄버	2745
▁헬멧	2746
▁환승	2747
▁힘든	2748
검사를	2749
났는데	2750
되면서	2751
라는데	2752
소에서	2753
졌는데	2754
주시는	2755
하기가	2756
해줘야	2757
▁가기로	2758
▁가려면	2759
▁거리에	2760
▁거부를	2761
▁건강상	2762
▁고추장	2763
▁공부를	2764
▁광역버	2765
▁금요일	2766
▁낳았어	2767
▁내려야	2768
▁넣어야	2769
▁다리가	2770
▁다리를	2771
▁다쳐서	2772
▁동기가	2773
▁떠나서	2774
▁마셔서	2775
▁마트에	2776
▁막혀서	2777
▁많다고	2778
▁맛있게	2779
▁바람에	2780
▁밖에서	2781
▁버려진	2782
▁보여서	2783
▁생선을	2784
▁서울로	2785
▁소식을	2786
▁쉬운데	2787
▁시키고	2788
▁실감이	2789
▁썼는데	2790
▁아프고	2791
▁안경을	2792
▁앞에서	2793
▁애교를	2794
▁얘기를	2795
▁없다고	2796
▁예약이	2797
▁외식을	2798
▁요리는	2799
▁운전에	2800
▁운전할	2801
▁이사를	2802
▁일주일	2803
▁있다는	2804
▁저렇게	2805
▁전에는	2806
▁좋을지	2807
▁직원이	2808
▁찜닭에	2809
▁최고야	2810
▁카페에	2811
▁커피를	2812
▁키우게	2813
▁키울지	2814
▁키워서	2815
▁토끼도	2816
▁해주는	2817
케이크를	2818
▁공원에서	2819
▁교통수단	2820
▁교통카드	2821
▁구경하러	2822
▁귀걸이를	2823
▁귀여워서	2824
▁기차표를	2825
▁냉장고에	2826
▁뜨개질을	2827
▁마스크팩	2828
▁먹는다고	2829
▁무서워서	2830
▁보인다고	2831
▁싫어해서	2832
▁심해져서	2833
▁쓰레기를	2834
▁어느정도	2835
▁옆집에서	2836
▁이용하는	2837
▁입원해야	2838
▁자전거는	2839
▁잠들어서	2840
▁장난감을	2841
▁전기차로	2842
▁초콜릿이	2843
▁추워져서	2844
▁출퇴근을	2845
▁키워보고	2846
▁탈출해서	2847
▁하시는데	2848
▁할아버지	2849
▁햄버거를	2850
▁힘들어서	2851
▁남자친구와	2852
▁반려동물이	2853
▁스테이크를	2854
▁알레르기가	2855
▁합격했다고	2856
▁걸어가기에는	2857
▁스트레스받아	2858
▁아이스크림은	2859
▁일어나자마자	2860
▁겪	2861
▁눌	2862
▁디	2863
▁샌	2864
▁액	2865
▁엉	2866
▁콩	2867
구나	2868
김을	2869
두를	2870
드위	2871
량이	2872
반을	2873
받은	2874
분에	2875
작정	2876
정보	2877
직원	2878
집을	2879
천히	2880
체로	2881
타를	2882
▁가지	2883
▁감자	2884
▁갖고	2885
▁거리	2886
▁기침	2887
▁나올	2888
▁높아	2889
▁달인	2890
▁돌려	2891
▁뒤에	2892
▁딱히	2893
▁막막	2894
▁만한	2895
▁맞춰	2896
▁무시	2897
▁뭔지	2898
▁발전	2899
▁배불	2900
▁병이	2901
▁소금	2902
▁슬슬	2903
▁시달	2904
▁식단	2905
▁않으	2906
▁없대	2907
▁역사	2908
▁옆에	2909
▁익혀	2910
▁전환	2911
▁접촉	2912
▁젓갈	2913
▁증가	2914
▁지속	2915
▁지켜	2916
▁출산	2917
▁편한	2918
▁품절	2919
▁헬스	2920
기한이	2921
졌어요	2922
크림을	2923
하셨어	2924
▁결과를	2925
▁결혼할	2926
▁날이야	2927
▁다시는	2928
▁덕분에	2929
▁동생은	2930
▁면접을	2931
▁무작정	2932
▁미역국	2933
▁발견된	2934
▁배에서	2935
▁샌드위	2936
▁시스템	2937
▁시작한	2938
▁심각한	2939
▁애들이	2940
▁약속이	2941
▁없어요	2942
▁오니까	2943
▁외로워	2944
▁요즘도	2945
▁우울해	2946
▁울어서	2947
▁있는지	2948
▁자기가	2949
▁젊은이	2950
▁죽겠어	2951
▁직원들	2952
▁천천히	2953
▁키웠던	2954
▁통해서	2955
▁회사를	2956
었습니다	2957
▁간편하게	2958
▁도마뱀이	2959
▁모르겠네	2960
▁못했어요	2961
▁무서웠어	2962
▁무언가를	2963
▁백화점에	2964
▁뻔했어요	2965
▁사장님이	2966
▁시켰는데	2967
▁어떡하지	2968
▁올리라고	2969
▁일주일에	2970
▁지금까지	2971
▁했습니다	2972
▁웨딩드레스를	2973
▁P	2974
▁끔	2975
▁닮	2976
▁멋	2977
▁에	2978
▁젖	2979
▁쪘	2980
▁팥	2981
▁헤	2982
▁홈	2983
거리	2984
겁게	2985
기나	2986
년이	2987
드립	2988
람이	2989
력도	2990
목을	2991
방암	2992
방을	2993
배를	2994
살이	2995
야지	2996
의를	2997
▁간다	2998
▁관절	2999
▁그랬	3000
▁기대	3001
▁끔찍	3002
▁나의	3003
▁낮은	3004
▁내게	3005
▁눈에	3006
▁대로	3007
▁세탁	3008
▁손님	3009
▁숨이	3010
▁아름	3011
▁어때	3012
▁외출	3013
▁욕을	3014
▁유통	3015
▁이게	3016
▁이직	3017
▁자세	3018
▁자신	3019
▁자지	3020
▁잡고	3021
▁장마	3022
▁주기	3023
▁차려	3024
▁채용	3025
▁취득	3026
▁카드	3027
▁커피	3028
▁파마	3029
▁프랑	3030
▁학생	3031
▁한잔	3032
마리를	3033
였는데	3034
집에서	3035
치료를	3036
해져서	3037
해지는	3038
▁걸려요	3039
▁구독과	3040
▁나이는	3041
▁늦어서	3042
▁늦잠을	3043
▁다음에	3044
▁당뇨가	3045
▁대기업	3046
▁데려가	3047
▁렌즈를	3048
▁마트가	3049
▁만나지	3050
▁메뉴는	3051
▁모습을	3052
▁바빠도	3053
▁비타민	3054
▁샀어요	3055
▁습관을	3056
▁아기를	3057
▁아버지	3058
▁알려줘	3059
▁여름이	3060
▁여유가	3061
▁여전히	3062
▁올해도	3063
▁우리를	3064
▁음식에	3065
▁인기가	3066
▁인식이	3067
▁일이라	3068
▁좋더라	3069
▁주셨어	3070
▁카레에	3071
▁키위는	3072
▁하루를	3073
▁해결할	3074
▁허리가	3075
드립니다	3076
▁건강하지	3077
▁괜찮을까	3078
▁다음주에	3079
▁마스크를	3080
▁사람말을	3081
▁싫어하는	3082
▁인터넷에	3083
▁있으니까	3084
▁집고양이	3085
▁기니피그가	3086
▁다이어트를	3087
▁쇼핑몰에서	3088
▁유통기한이	3089
▁지난주부터	3090
▁취득했는데	3091
▁할아버지는	3092
▁핸드크림을	3093
▁부탁드립니다	3094
▁A	3095
▁권	3096
▁꽂	3097
▁낫	3098
▁뜯	3099
▁쏟	3100
▁줬	3101
▁팬	3102
▁햇	3103
가루	3104
길에	3105
나를	3106
내서	3107
년의	3108
등에	3109
려한	3110
많은	3111
명을	3112
밑에	3113
보니	3114
소한	3115
스에	3116
스틱	3117
연히	3118
차가	3119
하시	3120
▁갈까	3121
▁걷는	3122
▁겁이	3123
▁나타	3124
▁낙태	3125
▁마시	3126
▁많다	3127
▁모기	3128
▁모자	3129
▁목줄	3130
▁묻히	3131
▁뭐라	3132
▁베이	3133
▁봤어	3134
▁불러	3135
▁사이	3136
▁서로	3137
▁쉬는	3138
▁실적	3139
▁얘기	3140
▁일도	3141
▁있다	3142
▁지적	3143
▁진행	3144
▁책상	3145
▁최저	3146
▁출발	3147
▁투표	3148
▁특히	3149
▁하게	3150
▁한대	3151
▁회원	3152
▁흔들	3153
겠다는	3154
당했어	3155
볶음을	3156
었으면	3157
의금을	3158
주세요	3159
▁가족들	3160
▁갈수록	3161
▁감사한	3162
▁거라서	3163
▁것처럼	3164
▁고민이	3165
▁그림을	3166
▁뉴스에	3167
▁달걀과	3168
▁되니까	3169
▁된다고	3170
▁뒷산에	3171
▁먹는게	3172
▁몰랐어	3173
▁문제에	3174
▁부서로	3175
▁분리수	3176
▁사람들	3177
▁사야할	3178
▁생각을	3179
▁설탕을	3180
▁소개팅	3181
▁손톱을	3182
▁수많은	3183
▁시키면	3184
▁실수를	3185
▁쓰레기	3186
▁업무에	3187
▁없다는	3188
▁유방암	3189
▁있길래	3190
▁정신이	3191
▁제사를	3192
▁중년의	3193
▁취미야	3194
▁치매에	3195
▁파충류	3196
▁하나가	3197
▁하나를	3198
▁활동을	3199
▁효과가	3200
셨습니다	3201
▁결혼식은	3202
▁나온다고	3203
▁늘어나고	3204
▁면접에서	3205
▁미용실에	3206
▁비빔밥을	3207
▁장례식을	3208
▁조심해야	3209
▁청첩장을	3210
▁출근길에	3211
▁힘들어요	3212
▁걱정했는데	3213
▁만들었는데	3214
▁온라인으로	3215
▁L	3216
▁곤	3217
▁깔	3218
▁덮	3219
▁땅	3220
▁라	3221
▁빌	3222
▁샴	3223
▁송	3224
▁으	3225
▁좌	3226
▁춥	3227
▁침	3228
▁캔	3229
▁푸	3230
가스	3231
건이	3232
년째	3233
대를	3234
도에	3235
되지	3236
두기	3237
마리	3238
만을	3239
병이	3240
서를	3241
율이	3242
잡고	3243
주지	3244
지네	3245
지로	3246
질이	3247
트로	3248
했지	3249
▁감기	3250
▁거기	3251
▁걸리	3252
▁고마	3253
▁교환	3254
▁그거	3255
▁근데	3256
▁낮잠	3257
▁넣고	3258
▁느꼈	3259
▁다람	3260
▁도시	3261
▁되네	3262
▁머릿	3263
▁몸에	3264
▁못먹	3265
▁물에	3266
▁밑에	3267
▁반복	3268
▁밥만	3269
▁배송	3270
▁백혈	3271
▁벌어	3272
▁범죄	3273
▁보장	3274
▁부려	3275
▁사갈	3276
▁사주	3277
▁사촌	3278
▁삶은	3279
▁샴푸	3280
▁쉽지	3281
▁쓸모	3282
▁양이	3283
▁어지	3284
▁얼른	3285
▁영어	3286
▁오고	3287
▁오후	3288
▁위암	3289
▁있게	3290
▁잔뜩	3291
▁잠시	3292
▁재워	3293
▁정리	3294
▁제육	3295
▁제한	3296
▁조카	3297
▁좋대	3298
▁차량	3299
▁추기	3300
▁친척	3301
▁캠페	3302
▁팀이	3303
▁평생	3304
▁피자	3305
▁하려	3306
▁허리	3307
▁회식	3308
거에요	3309
사고가	3310
상으로	3311
스러운	3312
지면서	3313
한다는	3314
▁기회가	3315
▁났는데	3316
▁다녀요	3317
▁더러워	3318
▁돈가스	3319
▁동물들	3320
▁드세요	3321
▁들어온	3322
▁말이야	3323
▁면발이	3324
▁면허가	3325
▁부끄러	3326
▁사이에	3327
▁소금을	3328
▁시작할	3329
▁식단을	3330
▁않지만	3331
▁어려울	3332
▁올해는	3333
▁주부터	3334
▁창문을	3335
▁챙겨야	3336
▁출산을	3337
▁하느라	3338
▁확인해	3339
먹었어요	3340
해주세요	3341
▁기다리는	3342
▁다녀왔어	3343
▁다행히도	3344
▁도룡룡을	3345
▁동료들이	3346
▁들었어요	3347
▁먹어봤어	3348
▁사람들을	3349
▁시달리는	3350
▁신혼여행	3351
▁아주머니	3352
▁아침마다	3353
▁어려워서	3354
▁이야기를	3355
▁처음에는	3356
▁출근하는	3357
▁출근했어	3358
▁케이크를	3359
▁큰일이야	3360
▁파충류를	3361
▁평소에는	3362
▁해주셨어	3363
▁건강상태가	3364
▁만족스러워	3365
▁하객들에게	3366
▁S	3367
▁깍	3368
▁깻	3369
▁늙	3370
▁떼	3371
▁립	3372
▁뺄	3373
▁솔	3374
▁쑤	3375
▁캐	3376
▁쿠	3377
▁톱	3378
갈비	3379
개월	3380
끗이	3381
놀이	3382
님의	3383
레칭	3384
료는	3385
륙할	3386
를까	3387
릉에	3388
리네	3389
리카	3390
면증	3391
박을	3392
봐서	3393
부러	3394
분히	3395
석에	3396
성을	3397
성이	3398
션을	3399
수야	3400
스푼	3401
았을	3402
어져	3403
어캣	3404
움을	3405
율주	3406
임이	3407
져야	3408
중이	3409
쥐를	3410
지에	3411
진대	3412
카를	3413
키를	3414
탕을	3415
톱을	3416
편을	3417
표가	3418
하교	3419
하해	3420
회를	3421
회에	3422
▁50	3423
▁LA	3424
▁MT	3425
▁결항	3426
▁경우	3427
▁골목	3428
▁공항	3429
▁과장	3430
▁교체	3431
▁굽는	3432
▁그릇	3433
▁깜짝	3434
▁깻잎	3435
▁꼬여	3436
▁끌고	3437
▁끓일	3438
▁나요	3439
▁남겨	3440
▁남지	3441
▁넣는	3442
▁놀기	3443
▁늦은	3444
▁다녔	3445
▁달리	3446
▁담가	3447
▁당근	3448
▁도넛	3449
▁독일	3450
▁돼지	3451
▁두꺼	3452
▁듣기	3453
▁따야	3454
▁또래	3455
▁또한	3456
▁마감	3457
▁마치	3458
▁맥주	3459
▁몰던	3460
▁몸은	3461
▁무리	3462
▁믿고	3463
▁바꾸	3464
▁바꿀	3465
▁바나	3466
▁바르	3467
▁밥도	3468
▁배웠	3469
▁배차	3470
▁뱀이	3471
▁부정	3472
▁사교	3473
▁사도	3474
▁샀어	3475
▁생길	3476
▁소모	3477
▁수영	3478
▁시리	3479
▁식초	3480
▁신선	3481
▁싶지	3482
▁쌀국	3483
▁써서	3484
▁않게	3485
▁어르	3486
▁어쩌	3487
▁어쩜	3488
▁업체	3489
▁연장	3490
▁예방	3491
▁오갈	3492
▁올까	3493
▁외로	3494
▁외식	3495
▁있던	3496
▁잊지	3497
▁자고	3498
▁잠도	3499
▁적당	3500
▁적절	3501
▁전용	3502
▁정체	3503
▁조문	3504
▁주인	3505
▁주차	3506
▁죽는	3507
▁중소	3508
▁중화	3509
▁집어	3510
▁짧은	3511
▁차랑	3512
▁찾는	3513
▁최종	3514
▁추석	3515
▁춘천	3516
▁타서	3517
▁탔던	3518
▁하차	3519
▁하필	3520
▁한우	3521
▁해준	3522
▁회가	3523
겼는데	3524
다니는	3525
라이브	3526
셨다면	3527
시아와	3528
어캣을	3529
었는지	3530
용으로	3531
이어서	3532
줘야지	3533
크림은	3534
터카를	3535
하시고	3536
하자고	3537
해보고	3538
해졌어	3539
했는지	3540
▁가까운	3541
▁가끔은	3542
▁가보고	3543
▁가셔서	3544
▁간격이	3545
▁간다고	3546
▁갔었어	3547
▁강릉에	3548
▁거기서	3549
▁것으로	3550
▁겨울에	3551
▁고기가	3552
▁곳으로	3553
▁국물을	3554
▁그만큼	3555
▁기차가	3556
▁길거리	3557
▁김치는	3558
▁깎아주	3559
▁깨끗이	3560
▁나가서	3561
▁나온대	3562
▁남았네	3563
▁남편과	3564
▁내년에	3565
▁내다가	3566
▁내려서	3567
▁다니기	3568
▁달걀을	3569
▁당일에	3570
▁대해서	3571
▁덮개를	3572
▁데려다	3573
▁데려왔	3574
▁데리고	3575
▁돌아서	3576
▁돌아오	3577
▁등하교	3578
▁따뜻한	3579
▁뛰어놀	3580
▁만지기	3581
▁맛있고	3582
▁맛있을	3583
▁맛집에	3584
▁맞춰야	3585
▁메뉴를	3586
▁멕시코	3587
▁바람을	3588
▁받아도	3589
▁배고플	3590
▁배불리	3591
▁버스나	3592
▁복숭아	3593
▁부리고	3594
▁불면증	3595
▁빠르고	3596
▁샐러드	3597
▁생각도	3598
▁숨어있	3599
▁시골에	3600
▁시켜야	3601
▁시켰어	3602
▁시키는	3603
▁쑤시고	3604
▁아빠랑	3605
▁아침은	3606
▁안좋은	3607
▁않더라	3608
▁않아요	3609
▁양고기	3610
▁어묵을	3611
▁언니만	3612
▁여름에	3613
▁여행이	3614
▁연습을	3615
▁연예인	3616
▁영상은	3617
▁영상이	3618
▁예매한	3619
▁우동은	3620
▁우려가	3621
▁위험해	3622
▁유럽을	3623
▁이름을	3624
▁이제야	3625
▁자율주	3626
▁잤어요	3627
▁좋겠다	3628
▁중간에	3629
▁중고로	3630
▁중국에	3631
▁직업을	3632
▁진로에	3633
▁차량과	3634
▁착륙할	3635
▁최고인	3636
▁축하해	3637
▁출근할	3638
▁출근해	3639
▁출장을	3640
▁충분히	3641
▁친구네	3642
▁타코를	3643
▁탑승할	3644
▁택시는	3645
▁터키에	3646
▁팔길래	3647
▁편하고	3648
▁해먹고	3649
▁호텔도	3650
▁홈쇼핑	3651
렸었는데	3652
만원이나	3653
만으로도	3654
색했는데	3655
아졌어요	3656
▁가깝다고	3657
▁겨울에는	3658
▁결항해서	3659
▁고양이들	3660
▁기차표가	3661
▁노력해요	3662
▁다람쥐를	3663
▁달인이야	3664
▁도로에서	3665
▁두꺼워서	3666
▁드라이브	3667
▁레시피를	3668
▁많아졌어	3669
▁미래에는	3670
▁미어캣을	3671
▁버스표를	3672
▁보호소에	3673
▁부딪히는	3674
▁사람들의	3675
▁생각하면	3676
▁생각했던	3677
▁생겼는지	3678
▁소고기를	3679
▁쇼핑하러	3680
▁스트레칭	3681
▁시켰어요	3682
▁신기하게	3683
▁아시아와	3684
▁양보해주	3685
▁어울리는	3686
▁여러가지	3687
▁오토바이	3688
▁요리하기	3689
▁운전하면	3690
▁움직임이	3691
▁위해서는	3692
▁이용해서	3693
▁익숙해진	3694
▁입어보러	3695
▁있을까요	3696
▁자동차를	3697
▁점심으로	3698
▁조리해서	3699
▁좋아졌어	3700
▁준비해야	3701
▁충격이야	3702
▁친구들을	3703
▁키우는게	3704
▁키우자고	3705
▁킥보드도	3706
▁강아지만큼	3707
▁고속도로를	3708
▁고양이들은	3709
▁교통사고로	3710
▁김치입니다	3711
▁김치찌개가	3712
▁꼬여버렸어	3713
▁담가주시는	3714
▁떨어졌는데	3715
▁미안하더라	3716
▁반려동물도	3717
▁스파게티가	3718
▁시켜달라고	3719
▁여가시간에	3720
▁예매하려고	3721
▁예약했는데	3722
▁오토바이랑	3723
▁운동하다가	3724
▁운전면허를	3725
▁자전거보다	3726
▁재밌었는지	3727
▁제육볶음을	3728
▁키워보려고	3729
▁탈출했는데	3730
▁퇴근하시고	3731
▁프로젝트를	3732
▁해먹으려고	3733
▁고속도로에서	3734
▁많아졌습니다	3735
▁아이스크림을	3736
▁조심스러워요	3737
▁대중교통보다는	3738
▁잃어버렸었는데	3739
▁곰	3740
▁극	3741
▁껴	3742
▁낡	3743
▁듯	3744
▁섭	3745
▁압	3746
값이	3747
거지	3748
내는	3749
담을	3750
도체	3751
돼요	3752
들지	3753
력에	3754
리지	3755
법을	3756
부모	3757
분이	3758
섯을	3759
성에	3760
우고	3761
운이	3762
육을	3763
이다	3764
지원	3765
초밥	3766
티즈	3767
폰을	3768
풍뎅	3769
▁계절	3770
▁고령	3771
▁곳을	3772
▁교육	3773
▁급식	3774
▁긴장	3775
▁나쁜	3776
▁나을	3777
▁낫지	3778
▁냄새	3779
▁노동	3780
▁다가	3781
▁당신	3782
▁독감	3783
▁되니	3784
▁등록	3785
▁떠넘	3786
▁레몬	3787
▁많네	3788
▁말아	3789
▁메밀	3790
▁모양	3791
▁무척	3792
▁방금	3793
▁배려	3794
▁배워	3795
▁보낸	3796
▁보낼	3797
▁봐요	3798
▁사슴	3799
▁살면	3800
▁소풍	3801
▁손에	3802
▁수는	3803
▁시장	3804
▁신나	3805
▁실패	3806
▁아구	3807
▁아들	3808
▁어항	3809
▁영화	3810
▁오전	3811
▁오지	3812
▁요양	3813
▁원피	3814
▁응급	3815
▁의미	3816
▁잡곡	3817
▁장기	3818
▁전자	3819
▁종류	3820
▁지방	3821
▁진작	3822
▁크게	3823
▁탈락	3824
▁팔고	3825
▁평화	3826
▁하던	3827
▁하찮	3828
▁해가	3829
▁해본	3830
▁향신	3831
▁향의	3832
다던데	3833
다보면	3834
당면을	3835
라면을	3836
먹었어	3837
면서도	3838
아그라	3839
에게만	3840
웠더니	3841
이던데	3842
있어서	3843
주셔서	3844
직으로	3845
통제를	3846
하지도	3847
했지만	3848
▁경기가	3849
▁과자를	3850
▁기분을	3851
▁기운이	3852
▁기타를	3853
▁낡아서	3854
▁내일이	3855
▁누워있	3856
▁다르게	3857
▁단체로	3858
▁도시락	3859
▁들수록	3860
▁많아져	3861
▁말씀하	3862
▁맞아서	3863
▁맞았어	3864
▁먹었네	3865
▁먹을지	3866
▁면허를	3867
▁모습이	3868
▁미끄러	3869
▁바다에	3870
▁바닥에	3871
▁반도체	3872
▁받아요	3873
▁받으러	3874
▁발령이	3875
▁버섯을	3876
▁부산에	3877
▁분양받	3878
▁비슷한	3879
▁비용이	3880
▁빠르게	3881
▁사진이	3882
▁상당히	3883
▁상태가	3884
▁생기고	3885
▁소문을	3886
▁습관이	3887
▁실수가	3888
▁아무데	3889
▁알아서	3890
▁어디로	3891
▁억울해	3892
▁엄두가	3893
▁없어지	3894
▁연어가	3895
▁오늘이	3896
▁오더니	3897
▁옷들을	3898
▁일자리	3899
▁일하는	3900
▁있네요	3901
▁있도록	3902
▁전철이	3903
▁주인이	3904
▁지원을	3905
▁지인이	3906
▁직장이	3907
▁친구들	3908
▁케이지	3909
▁택배가	3910
▁편이야	3911
▁하늘이	3912
▁혈압을	3913
하더라고	3914
▁강아지도	3915
▁것입니다	3916
▁고양이나	3917
▁길어져서	3918
▁남편이랑	3919
▁됐습니다	3920
▁되었어요	3921
▁만성질환	3922
▁먹었더니	3923
▁면접관이	3924
▁받았어요	3925
▁봤었는데	3926
▁부담스러	3927
▁샌드위치	3928
▁시작해서	3929
▁안락사는	3930
▁애들이랑	3931
▁여름에는	3932
▁은퇴하고	3933
▁이후로는	3934
▁저녁에는	3935
▁차별하면	3936
▁코로나에	3937
▁토요일에	3938
▁했었는데	3939
▁회의감이	3940
▁결혼식에서	3941
▁다녀왔어요	3942
▁부족하다고	3943
▁언니에게만	3944
▁여러가지를	3945
▁유행이던데	3946
▁젊은이들이	3947
▁홈쇼핑에서	3948
▁냄비만으로도	3949
▁당황스러웠어	3950
▁우리나라에도	3951
▁전동킥보드를	3952
▁궁	3953
▁귤	3954
▁듬	3955
▁섬	3956
▁웃	3957
▁음	3958
▁쪽	3959
▁쳐	3960
▁칠	3961
▁텍	3962
가의	3963
가지	3964
겠대	3965
곳저	3966
기구	3967
까워	3968
나봐	3969
노래	3970
데믹	3971
동생	3972
두는	3973
드게	3974
란이	3975
래도	3976
렇다	3977
레이	3978
로를	3979
롭고	3980
▁	3981
이	3982
어	3983
는	3984
가	3985
.	3986
에	3987
서	3988
고	3989
을	3990
아	3991
하	3992
지	3993
다	3994
를	3995
데	3996
나	3997
해	3998
요	3999
기	4000
사	4001
도	4002
있	4003
리	4004
로	4005
은	4006
들	4007
니	4008
한	4009
게	4010
무	4011
시	4012
야	4013
라	4014
내	4015
자	4016
우	4017
스	4018
보	4019
면	4020
먹	4021
일	4022
오	4023
려	4024
했	4025
으	4026
안	4027
까	4028
너	4029
주	4030
것	4031
집	4032
마	4033
식	4034
만	4035
장	4036
?	4037
제	4038
같	4039
좋	4040
동	4041
정	4042
강	4043
부	4044
었	4045
대	4046
많	4047
전	4048
수	4049
때	4050
생	4051
구	4052
더	4053
거	4054
인	4055
할	4056
키	4057
그	4058
의	4059
비	4060
건	4061
버	4062
상	4063
타	4064
원	4065
친	4066
말	4067
러	4068
음	4069
양	4070
늘	4071
결	4072
번	4073
없	4074
치	4075
차	4076
혼	4077
네	4078
운	4079
즘	4080
물	4081
직	4082
드	4083
워	4084
간	4085
람	4086
싶	4087
았	4088
모	4089
여	4090
잘	4091
중	4092
소	4093
미	4094
금	4095
받	4096
걸	4097
않	4098
진	4099
겠	4100
난	4101
회	4102
신	4103
습	4104
과	4105
저	4106
터	4107
근	4108
문	4109
적	4110
매	4111
래	4112
엄	4113
맛	4114
못	4115
와	4116
행	4117
국	4118
심	4119
히	4120
바	4121
작	4122
랑	4123
업	4124
되	4125
조	4126
각	4127
왔	4128
계	4129
던	4130
입	4131
르	4132
새	4133
교	4134
날	4135
밥	4136
트	4137
분	4138
편	4139
취	4140
반	4141
병	4142
빠	4143
달	4144
화	4145
속	4146
실	4147
용	4148
공	4149
배	4150
예	4151
방	4152
알	4153
레	4154
당	4155
셨	4156
통	4157
불	4158
져	4159
세	4160
렸	4161
두	4162
출	4163
갔	4164
위	4165
피	4166
갈	4167
살	4168
파	4169
감	4170
유	4171
돼	4172
선	4173
산	4174
약	4175
경	4176
울	4177
관	4178
준	4179
청	4180
머	4181
철	4182
료	4183
줄	4184
님	4185
성	4186
년	4187
셔	4188
재	4189
처	4190
올	4191
연	4192
단	4193
겨	4194
개	4195
크	4196
노	4197
최	4198
토	4199
남	4200
점	4201
길	4202
봐	4203
택	4204
졌	4205
온	4206
합	4207
침	4208
힘	4209
발	4210
끼	4211
영	4212
꾸	4213
학	4214
추	4215
느	4216
체	4217
든	4218
봤	4219
디	4220
짜	4221
민	4222
프	4223
항	4224
김	4225
0	4226
른	4227
퇴	4228
후	4229
검	4230
력	4231
질	4232
코	4233
명	4234
얼	4235
족	4236
격	4237
따	4238
쓰	4239
언	4240
돌	4241
임	4242
초	4243
갑	4244
잠	4245
넣	4246
찍	4247
눈	4248
카	4249
외	4250
환	4251
테	4252
,	4253
몸	4254
뭐	4255
례	4256
켜	4257
손	4258
열	4259
종	4260
맞	4261
품	4262
런	4263
옷	4264
름	4265
증	4266
변	4267
애	4268
귀	4269
별	4270
표	4271
막	4272
씨	4273
웠	4274
절	4275
줘	4276
햄	4277
호	4278
걱	4279
1	4280
놀	4281
렇	4282
볶	4283
복	4284
역	4285
됐	4286
본	4287
책	4288
접	4289
태	4290
께	4291
났	4292
늦	4293
찮	4294
급	4295
법	4296
탈	4297
루	4298
된	4299
육	4300
앞	4301
찾	4302
활	4303
술	4304
곳	4305
목	4306
챙	4307
냥	4308
떡	4309
천	4310
핑	4311
싫	4312
참	4313
밖	4314
며	4315
락	4316
왜	4317
떻	4318
녁	4319
함	4320
2	4321
석	4322
릴	4323
황	4324
긴	4325
쇼	4326
필	4327
란	4328
승	4329
평	4330
백	4331
빨	4332
림	4333
벌	4334
써	4335
허	4336
겼	4337
좀	4338
녀	4339
몰	4340
꼭	4341
3	4342
등	4343
떨	4344
였	4345
될	4346
또	4347
익	4348
쳐	4349
돈	4350
떤	4351
류	4352
슴	4353
린	4354
킥	4355
끝	4356
슬	4357
향	4358
닭	4359
삼	4360
충	4361
칠	4362
큰	4363
망	4364
놓	4365
록	4366
싸	4367
움	4368
탔	4369
몇	4370
럽	4371
혀	4372
넘	4373
줬	4374
탕	4375
포	4376
밤	4377
독	4378
죽	4379
련	4380
케	4381
잡	4382
담	4383
뱀	4384
씩	4385
억	4386
확	4387
험	4388
완	4389
누	4390
착	4391
냉	4392
쉬	4393
샀	4394
북	4395
색	4396
암	4397
괜	4398
밀	4399
설	4400
답	4401
메	4402
잃	4403
찜	4404
권	4405
뉴	4406
뒤	4407
랐	4408
팀	4409
커	4410
옆	4411
팔	4412
끔	4413
깨	4414
박	4415
젊	4416
티	4417
핸	4418
딩	4419
골	4420
혈	4421
곤	4422
랜	4423
웨	4424
현	4425
능	4426
판	4427
퍼	4428
찬	4429
큼	4430
순	4431
찌	4432
창	4433
껴	4434
볼	4435
폰	4436
잔	4437
5	4438
픈	4439
멀	4440
숙	4441
앵	4442
딸	4443
희	4444
쌀	4445
앉	4446
즈	4447
견	4448
끓	4449
뜨	4450
압	4451
투	4452
형	4453
냄	4454
슨	4455
광	4456
럼	4457
먼	4458
플	4459
닌	4460
뭘	4461
빼	4462
톱	4463
꼬	4464
떠	4465
즐	4466
탁	4467
페	4468
염	4469
월	4470
군	4471
낳	4472
숨	4473
삶	4474
4	4475
축	4476
씬	4477
밌	4478
켰	4479
객	4480
립	4481
킨	4482
끄	4483
꺼	4484
넷	4485
젝	4486
채	4487
및	4488
얘	4489
딱	4490
쉽	4491
악	4492
휴	4493
량	4494
맡	4495
붙	4496
풀	4497
꿔	4498
령	4499
쓸	4500
욕	4501
응	4502
째	4503
촌	4504
송	4505
엔	4506
탄	4507
훨	4508
믿	4509
뻔	4510
잊	4511
풍	4512
둘	4513
룡	4514
씻	4515
e	4516
낙	4517
혹	4518
렌	4519
곧	4520
봉	4521
튀	4522
갖	4523
낮	4524
냈	4525
듯	4526
뻐	4527
쁜	4528
척	4529
첩	4530
훈	4531
a	4532
겁	4533
뿌	4534
싱	4535
T	4536
죄	4537
걀	4538
끊	4539
뛰	4540
섭	4541
글	4542
높	4543
클	4544
폭	4545
6	4546
깐	4547
듣	4548
털	4549
o	4550
닐	4551
똑	4552
범	4553
존	4554
쪄	4555
i	4556
r	4557
s	4558
렵	4559
특	4560
쪽	4561
쳤	4562
걷	4563
굴	4564
베	4565
A	4566
겹	4567
깝	4568
끌	4569
뒷	4570
럴	4571
헬	4572
효	4573
꽃	4574
냐	4575
논	4576
득	4577
뽑	4578
졸	4579
쯤	4580
킬	4581
푸	4582
t	4583
닥	4584
랫	4585
롭	4586
릿	4587
뭔	4588
율	4589
젯	4590
획	4591
곡	4592
굽	4593
낼	4594
뇨	4595
땐	4596
씀	4597
텔	4598
뜻	4599
옛	4600
7	4601
균	4602
덥	4603
딪	4604
맨	4605
묵	4606
브	4607
짝	4608
흐	4609
겸	4610
극	4611
깜	4612
넌	4613
빈	4614
빔	4615
빙	4616
센	4617
십	4618
썼	4619
액	4620
엉	4621
옥	4622
팅	4623
패	4624
팬	4625
홀	4626
뽕	4627
션	4628
싼	4629
짬	4630
츠	4631
흔	4632
엽	4633
욱	4634
짐	4635
횡	4636
흘	4637
8	4638
M	4639
n	4640
괴	4641
납	4642
념	4643
놨	4644
눠	4645
륙	4646
옮	4647
홍	4648
죠	4649
콜	4650
핫	4651
S	4652
낚	4653
덕	4654
벗	4655
벽	4656
잤	4657
P	4658
깎	4659
렀	4660
론	4661
맥	4662
붕	4663
섞	4664
잖	4665
좌	4666
캠	4667
컴	4668
컵	4669
퓨	4670
꿀	4671
덜	4672
릇	4673
몬	4674
왠	4675
짧	4676
쩔	4677
탑	4678
템	4679
팩	4680
폐	4681
l	4682
듬	4683
묻	4684
슷	4685
젓	4686
젠	4687
촉	4688
칭	4689
c	4690
꿈	4691
맑	4692
왕	4693
층	4694
캐	4695
u	4696
값	4697
링	4698
빵	4699
뼈	4700
섯	4701
썰	4702
웃	4703
핀	4704
헌	4705
낌	4706
낸	4707
넓	4708
녹	4709
뿐	4710
징	4711
콩	4712
C	4713
V	4714
d	4715
깃	4716
깊	4717
꽉	4718
뇌	4719
덩	4720
릉	4721
멕	4722
멧	4723
샐	4724
숭	4725
쑤	4726
읽	4727
쥐	4728
춘	4729
칼	4730
캣	4731
퀴	4732
틀	4733
혜	4734
흰	4735
겪	4736
눌	4737
벨	4738
쁘	4739
샌	4740
춰	4741
L	4742
닮	4743
뜯	4744
랬	4745
멋	4746
믹	4747
블	4748
잎	4749
젖	4750
쪘	4751
팥	4752
헤	4753
홈	4754
m	4755
p	4756
규	4757
꽂	4758
낫	4759
떼	4760
밑	4761
빌	4762
쏟	4763
쟁	4764
콘	4765
콤	4766
틱	4767
햇	4768
힐	4769
h	4770
깔	4771
꼈	4772
덮	4773
둥	4774
땅	4775
뜩	4776
렁	4777
삭	4778
샴	4779
쌍	4780
쓴	4781
춥	4782
캔	4783
쿠	4784
푼	4785
9	4786
B	4787
깍	4788
깻	4789
껏	4790
끗	4791
넛	4792
녔	4793
늙	4794
둔	4795
뺄	4796
섬	4797
솔	4798
쩌	4799
쩜	4800
쫄	4801
컨	4802
튼	4803
혔	4804
y	4805
곰	4806
꿨	4807
낡	4808
뎅	4809
렴	4810
붓	4811
쌈	4812
쨍	4813
칸	4814
텍	4815
I	4816
N	4817
g	4818
궁	4819
귤	4820
뚝	4821
띠	4822
몽	4823
곱	4824
굉	4825
땜	4826
봄	4827
뷔	4828
빛	4829
샤	4830
슈	4831
쌌	4832
웬	4833
잦	4834
즙	4835
킷	4836
튜	4837
팽	4838
O	4839
k	4840
겉	4841
꽤	4842
눅	4843
닿	4844
둬	4845
뱉	4846
뿍	4847
쌓	4848
썹	4849
엑	4850
칙	4851
탓	4852
팝	4853
펙	4854
펴	4855
!	4856
%	4857
갇	4858
굳	4859
긁	4860
낑	4861
농	4862
뉘	4863
랍	4864
략	4865
롱	4866
룩	4867
률	4868
멘	4869
몫	4870
밍	4871
볍	4872
뻑	4873
솟	4874
솥	4875
숟	4876
씹	4877
얌	4878
짓	4879
짤	4880
쩍	4881
찝	4882
찼	4883
첫	4884
촘	4885
춧	4886
캘	4887
툭	4888
팍	4889
푹	4890
흙	4891
꼼	4892
끈	4893
닷	4894
됩	4895
딨	4896
뚫	4897
멸	4898
앓	4899
엇	4900
윗	4901
찰	4902
챘	4903
측	4904
켓	4905
툴	4906
픽	4907
깁	4908
뀌	4909
댕	4910
덤	4911
딘	4912
뜬	4913
뭉	4914
므	4915
뱃	4916
삿	4917
샵	4918
셀	4919
쉴	4920
옳	4921
찐	4922
킹	4923
퍽	4924
힌	4925
f	4926
긋	4927
뒹	4928
땀	4929
맘	4930
멈	4931
묘	4932
묶	4933
빗	4934
빡	4935
숫	4936
앗	4937
얻	4938
엎	4939
첨	4940
핵	4941
협	4942
휘	4943
R	4944
b	4945
v	4946
w	4947
ᄏ	4948
놔	4949
떴	4950
뜸	4951
릎	4952
멍	4953
뷰	4954
싹	4955
왁	4956
줍	4957
텅	4958
퉜	4959
틈	4960
갱	4961
긍	4962
꼴	4963
뀐	4964
낄	4965
낯	4966
널	4967
닉	4968
닫	4969
댓	4970
뒀	4971
듭	4972
딴	4973
땄	4974
땡	4975
띵	4976
럭	4977
뢰	4978
륜	4979
륭	4980
멎	4981
밟	4982
벅	4983
벤	4984
붉	4985
빅	4986
뻥	4987
뿜	4988
쁠	4989
삐	4990
셜	4991
숍	4992
싣	4993
싯	4994
얹	4995
옹	4996
잉	4997
즉	4998
짰	4999
짱	5000
쩐	5001
쩡	5002
쫀	5003
총	5004
촬	5005
칩	5006
캥	5007
쿄	5008
탐	5009
텐	5010
팠	5011
핥	5012
횟	5013
훌	5014
휠	5015
H	5016
Q	5017
곶	5018
꽝	5019
꾼	5020
낭	5021
넋	5022
놈	5023
댁	5024
똥	5025
랄	5026
뤄	5027
멜	5028
밭	5029
뵐	5030
뺏	5031
샅	5032
셧	5033
숲	5034
웅	5035
융	5036
젤	5037
줌	5038
쭈	5039
쭉	5040
챗	5041
췄	5042
컷	5043
컸	5044
쾌	5045
